#pragma once
// Automatically generated by train_ai_model.py
// ESP32-S3 TFLite Micro Model for Multi-Class Target Classification

// CLASSES:
// 0 = Empty Room / Ghost Noise
// 1 = Active Moving Person
// 2 = Unconscious Person 

#include <stdint.h>

const unsigned int rescue_vision_model_len = 3548;
const unsigned char rescue_vision_model[] = {
    0x1c, 0x00, 0x00, 0x00, 0x54, 0x46, 0x4c, 0x33, 0x14, 0x00, 0x20, 0x00, 0x1c, 0x00, 0x18, 0x00, 0x14, 0x00, 0x10, 0x00, 0x0c, 0x00, 0x00, 0x00, 0x08, 0x00, 0x04, 0x00, 0x14, 0x00, 0x00, 0x00, 0x1c, 0x00, 0x00, 0x00, 0x98, 0x00, 0x00, 0x00, 0xf0, 0x00, 0x00, 0x00, 0x5c, 0x07, 0x00, 0x00, 0x6c, 0x07, 0x00, 0x00, 0x78, 0x0d, 0x00, 0x00, 0x03, 0x00, 0x00, 0x00, 0x01, 0x00, 0x00, 0x00, 0x10, 0x00, 0x00, 0x00, 0x00, 0x00, 0x0a, 0x00, 0x10, 0x00, 0x0c, 0x00, 0x08, 0x00, 0x04, 0x00, 0x0a, 0x00, 0x00, 0x00, 0x0c, 0x00, 0x00, 0x00, 0x1c, 0x00, 0x00, 0x00, 0x3c, 0x00, 0x00, 0x00, 0x0f, 0x00, 0x00, 0x00, 0x73, 0x65, 0x72, 0x76, 0x69, 0x6e, 0x67, 0x5f, 0x64, 0x65, 0x66, 0x61, 0x75, 0x6c, 0x74, 0x00, 0x01, 0x00, 0x00, 0x00, 0x04, 0x00, 0x00, 0x00, 0x90, 0xff, 0xff, 0xff, 0x0a, 0x00, 0x00, 0x00, 0x04, 0x00, 0x00, 0x00, 0x08, 0x00, 0x00, 0x00, 0x6f, 0x75, 0x74, 0x70, 0x75, 0x74, 0x5f, 0x30, 0x00, 0x00, 0x00, 0x00, 0x01, 0x00, 0x00, 0x00, 0x04, 0x00, 0x00, 0x00, 0x8a, 0xf8, 0xff, 0xff, 0x04, 0x00, 0x00, 0x00, 0x0c, 0x00, 0x00, 0x00, 0x6b, 0x65, 0x72, 0x61, 0x73, 0x5f, 0x74, 0x65, 0x6e, 0x73, 0x6f, 0x72, 0x00, 0x00, 0x00, 0x00, 0x02, 0x00, 0x00, 0x00, 0x34, 0x00, 0x00, 0x00, 0x04, 0x00, 0x00, 0x00, 0xdc, 0xff, 0xff, 0xff, 0x0d, 0x00, 0x00, 0x00, 0x04, 0x00, 0x00, 0x00, 0x13, 0x00, 0x00, 0x00, 0x43, 0x4f, 0x4e, 0x56, 0x45, 0x52, 0x53, 0x49, 0x4f, 0x4e, 0x5f, 0x4d, 0x45, 0x54, 0x41, 0x44, 0x41, 0x54, 0x41, 0x00, 0x08, 0x00, 0x0c, 0x00, 0x08, 0x00, 0x04, 0x00, 0x08, 0x00, 0x00, 0x00, 0x0c, 0x00, 0x00, 0x00, 0x04, 0x00, 0x00, 0x00, 0x13, 0x00, 0x00, 0x00, 0x6d, 0x69, 0x6e, 0x5f, 0x72, 0x75, 0x6e, 0x74, 0x69, 0x6d, 0x65, 0x5f, 0x76, 0x65, 0x72, 0x73, 0x69, 0x6f, 0x6e, 0x00, 0x0e, 0x00, 0x00, 0x00, 0x68, 0x06, 0x00, 0x00, 0x60, 0x06, 0x00, 0x00, 0x30, 0x06, 0x00, 0x00, 0x14, 0x06, 0x00, 0x00, 0xa4, 0x05, 0x00, 0x00, 0x94, 0x03, 0x00, 0x00, 0x04, 0x01, 0x00, 0x00, 0xb4, 0x00, 0x00, 0x00, 0xac, 0x00, 0x00, 0x00, 0xa4, 0x00, 0x00, 0x00, 0x9c, 0x00, 0x00, 0x00, 0x94, 0x00, 0x00, 0x00, 0x74, 0x00, 0x00, 0x00, 0x04, 0x00, 0x00, 0x00, 0x3e, 0xf9, 0xff, 0xff, 0x04, 0x00, 0x00, 0x00, 0x60, 0x00, 0x00, 0x00, 0x0c, 0x00, 0x00, 0x00, 0x08, 0x00, 0x0e, 0x00, 0x08, 0x00, 0x04, 0x00, 0x08, 0x00, 0x00, 0x00, 0x10, 0x00, 0x00, 0x00, 0x28, 0x00, 0x00, 0x00, 0x00, 0x00, 0x06, 0x00, 0x08, 0x00, 0x04, 0x00, 0x06, 0x00, 0x00, 0x00, 0x04, 0x00, 0x00, 0x00, 0x01, 0x00, 0x00, 0x00, 0xea, 0x03, 0x00, 0x00, 0x0c, 0x00, 0x18, 0x00, 0x14, 0x00, 0x10, 0x00, 0x0c, 0x00, 0x04, 0x00, 0x0c, 0x00, 0x00, 0x00, 0x8f, 0xf1, 0x8b, 0xec, 0xa0, 0x1b, 0x5b, 0xe5, 0x02, 0x00, 0x00, 0x00, 0x02, 0x00, 0x00, 0x00, 0x04, 0x00, 0x00, 0x00, 0x06, 0x00, 0x00, 0x00, 0x32, 0x2e, 0x32, 0x31, 0x2e, 0x30, 0x00, 0x00, 0xaa, 0xf9, 0xff, 0xff, 0x04, 0x00, 0x00, 0x00, 0x10, 0x00, 0x00, 0x00, 0x31, 0x2e, 0x35, 0x2e, 0x30, 0x00, 0x00, 0x00, 0x00, 0x00, 0x00, 0x00, 0x00, 0x00, 0x00, 0x00, 0x68, 0xf4, 0xff, 0xff, 0x6c, 0xf4, 0xff, 0xff, 0x70, 0xf4, 0xff, 0xff, 0x74, 0xf4, 0xff, 0xff, 0xd6, 0xf9, 0xff, 0xff, 0x04, 0x00, 0x00, 0x00, 0x40, 0x00, 0x00, 0x00, 0x8c, 0xc2, 0xb2, 0xbe, 0xd8, 0xcf, 0x87, 0x3e, 0x07, 0x81, 0x23, 0x3e, 0xdb, 0x20, 0x2d, 0x3e, 0x1d, 0x8a, 0x72, 0xbc, 0xe6, 0xad, 0xd4, 0x3e, 0xc8, 0xcc, 0x06, 0xbf, 0xee, 0xc3, 0x8f, 0x3e, 0x1c, 0xb3, 0x57, 0x3f, 0x61, 0x4d, 0x84, 0x3f, 0x6b, 0xdf, 0xab, 0x3d, 0x51, 0x75, 0xce, 0x3e, 0x03, 0x62, 0x37, 0x3f, 0x93, 0x6c, 0x47, 0xbe, 0x68, 0x0b, 0x3a, 0x3e, 0x60, 0x61, 0xd1, 0x3c, 0x22, 0xfa, 0xff, 0xff, 0x04, 0x00, 0x00, 0x00, 0x80, 0x02, 0x00, 0x00, 0x7d, 0xd0, 0xe7, 0x3c, 0x1c, 0xb0, 0xee, 0x3d, 0xc6, 0x34, 0xb6, 0xbf, 0xc4, 0x5e, 0x0f, 0x3f, 0x6e, 0x8f, 0xb5, 0x3f, 0x55, 0xcb, 0x69, 0x3e, 0x70, 0xe1, 0xa5, 0x3d, 0x2e, 0xf7, 0x4e, 0x3e, 0x5b, 0xfd, 0xd4, 0x3e, 0x40, 0xc8, 0x36, 0xbe, 0x03, 0x64, 0x93, 0x3e, 0x21, 0xaf, 0x39, 0xbf, 0x69, 0x09, 0x5a, 0xbf, 0xf6, 0xda, 0xd7, 0x3e, 0xed, 0x6a, 0x3f, 0xbe, 0x33, 0x6f, 0xc4, 0xbd, 0x90, 0x44, 0x32, 0x3b, 0xa8, 0x91, 0xb4, 0xbe, 0x62, 0x54, 0x81, 0xbe, 0x71, 0xa7, 0x9f, 0xbe, 0x1b, 0x19, 0x16, 0x3f, 0x9d, 0xbd, 0x93, 0x3f, 0xcf, 0xd0, 0x2e, 0x3e, 0x62, 0x60, 0x2a, 0xbf, 0xe2, 0xb3, 0x8b, 0x3d, 0x45, 0x2f, 0x4c, 0xbf, 0x26, 0x07, 0x8e, 0x3c, 0xfb, 0x8e, 0xd0, 0x3d, 0x62, 0x9c, 0xec, 0xbe, 0xea, 0x0f, 0x53, 0xbc, 0xf2, 0x64, 0xdf, 0x3d, 0x16, 0x85, 0x84, 0x3f, 0x86, 0x36, 0x9a, 0xbd, 0xb7, 0x37, 0x0e, 0xbe, 0xa8, 0x88, 0x18, 0x3d, 0xfe, 0x80, 0x01, 0x3f, 0xad, 0x28, 0x8c, 0xbf, 0x46, 0x68, 0x55, 0x3e, 0x9d, 0x5f, 0xbc, 0x3e, 0xa2, 0x7c, 0x0b, 0xbd, 0x65, 0xfb, 0xa9, 0x3e, 0xe0, 0x8f, 0xcb, 0x3e, 0x00, 0x4c, 0x99, 0xbf, 0x83, 0x41, 0x9c, 0x3e, 0x66, 0x2c, 0xb7, 0xbf, 0xce, 0x65, 0x38, 0xbf, 0x54, 0x73, 0x30, 0x3e, 0x9e, 0x88, 0xba, 0xbe, 0xf5, 0xdd, 0x9d, 0x3e, 0xf4, 0x72, 0xdb, 0x3e, 0x0a, 0xbb, 0xe5, 0xbe, 0x3c, 0xc8, 0x85, 0x3e, 0xac, 0x1a, 0xe6, 0xbd, 0x94, 0x60, 0x3f, 0x3c, 0x66, 0xc5, 0x07, 0xbf, 0x7c, 0xf9, 0x29, 0xbf, 0xc5, 0x00, 0x79, 0xbf, 0x4c, 0xd7, 0xb1, 0x3e, 0x2f, 0x88, 0x8e, 0xbe, 0xfd, 0xf8, 0xe7, 0xbd, 0x5a, 0x45, 0xaf, 0xbd, 0x23, 0x45, 0x9b, 0xbf, 0x38, 0x06, 0xd7, 0xbe, 0x45, 0x54, 0x18, 0x3e, 0x58, 0x03, 0x88, 0xbf, 0x39, 0x0c, 0xdc, 0xbd, 0xc7, 0x81, 0x29, 0x3f, 0x5f, 0x7b, 0x92, 0x3e, 0x6e, 0x1b, 0x19, 0xbe, 0x9f, 0x47, 0x9e, 0xbd, 0xa3, 0xbd, 0x52, 0x3f, 0x72, 0xb9, 0x10, 0xbe, 0xf3, 0x7f, 0xb4, 0xbe, 0x43, 0xc4, 0xb6, 0xbe, 0x06, 0x4d, 0xa2, 0x3d, 0xfe, 0x54, 0xad, 0x3e, 0x7f, 0x01, 0xed, 0x3d, 0x51, 0xb0, 0x3f, 0xbf, 0x46, 0xb5, 0x96, 0xbe, 0x58, 0xe0, 0x04, 0xbf, 0xda, 0x55, 0xa9, 0xbf, 0xc8, 0x35, 0x8b, 0xbe, 0x2f, 0x1d, 0xc0, 0xbe, 0xcc, 0x0c, 0x31, 0x3f, 0xad, 0x81, 0x1a, 0xbd, 0x8e, 0x3a, 0x68, 0xbe, 0xa1, 0x52, 0x6e, 0xbf, 0x9b, 0x6e, 0x5a, 0x3d, 0xb1, 0xac, 0x35, 0xbe, 0x4f, 0x26, 0x2c, 0x3d, 0x50, 0xf2, 0xd2, 0x3e, 0x9f, 0xc4, 0x1a, 0x3f, 0x77, 0xbd, 0x52, 0x3e, 0x53, 0x95, 0x17, 0x3f, 0x31, 0x2a, 0xa5, 0x3e, 0xa9, 0x93, 0xa3, 0xbc, 0x10, 0xb5, 0xd6, 0xbc, 0xcf, 0x37, 0x40, 0xbf, 0xa9, 0x34, 0x19, 0xbf, 0x09, 0xc5, 0xbb, 0x3e, 0x39, 0x8b, 0xe5, 0x3d, 0x86, 0xa9, 0x7b, 0x3f, 0xc7, 0x13, 0x20, 0x3f, 0x1f, 0x57, 0x83, 0x3f, 0x5e, 0x94, 0x18, 0xbf, 0xaa, 0x3a, 0x0d, 0x3f, 0xbf, 0x68, 0x8f, 0x3c, 0xd7, 0x8e, 0xd0, 0xbd, 0x6a, 0xb3, 0x25, 0x3d, 0x6d, 0x40, 0xc8, 0x3c, 0xe5, 0x65, 0xd5, 0xbf, 0x09, 0xfa, 0xa0, 0x3e, 0xa5, 0xec, 0x5f, 0x3d, 0x01, 0x92, 0xc4, 0x3e, 0x8e, 0x26, 0x93, 0x3d, 0x3a, 0xbf, 0xa9, 0x3c, 0x9c, 0xab, 0x9c, 0x3e, 0xc1, 0x0b, 0xf2, 0x3d, 0x73, 0xbd, 0xac, 0x3e, 0x4c, 0xb5, 0xe8, 0x3e, 0x77, 0x85, 0xe6, 0xbd, 0xca, 0xcf, 0x3e, 0x3d, 0xf7, 0xc2, 0xe3, 0xbf, 0x51, 0xfb, 0xe3, 0x3e, 0x59, 0xfb, 0x24, 0x3e, 0x78, 0x2e, 0x71, 0xbe, 0xd9, 0x23, 0xa3, 0x3c, 0xec, 0x78, 0xf1, 0x3d, 0x71, 0x20, 0x0d, 0xbf, 0x0f, 0x69, 0xe9, 0x3e, 0x0e, 0xc7, 0xc2, 0xbf, 0x79, 0xda, 0xe4, 0x3c, 0xf8, 0x11, 0x02, 0x3f, 0xa2, 0x9e, 0xd0, 0xbc, 0x29, 0xbe, 0xb4, 0x3c, 0xe6, 0x53, 0xb9, 0x3d, 0xf4, 0x9b, 0x39, 0xbf, 0xc8, 0x9d, 0x88, 0x3d, 0x6c, 0x2c, 0xaf, 0x3e, 0x2e, 0xdd, 0x22, 0x3e, 0x69, 0xee, 0xa1, 0xbe, 0x5b, 0x22, 0x29, 0xbf, 0xb2, 0xf7, 0x95, 0xbf, 0x11, 0xaa, 0x97, 0xbe, 0xd8, 0x88, 0x5c, 0x3e, 0xba, 0x76, 0xb9, 0x3d, 0x85, 0xbb, 0x9c, 0xbf, 0x1f, 0xcd, 0x04, 0xbf, 0x90, 0x5f, 0x1f, 0xbf, 0x8f, 0xfc, 0xe4, 0xbe, 0x08, 0xd5, 0xab, 0x3e, 0x1d, 0xd0, 0xf2, 0x3c, 0x47, 0xe9, 0x26, 0x3f, 0x5e, 0xa5, 0x6b, 0x3e, 0xae, 0xa4, 0x12, 0x3e, 0x59, 0x79, 0x26, 0xbf, 0x9e, 0x96, 0x92, 0x3f, 0x30, 0x0c, 0xfc, 0xbe, 0xec, 0xfa, 0xc4, 0xbe, 0xc1, 0xae, 0x38, 0xbe, 0xae, 0xfc, 0xff, 0xff, 0x04, 0x00, 0x00, 0x00, 0x00, 0x02, 0x00, 0x00, 0x63, 0x12, 0x60, 0x3e, 0x77, 0x04, 0x88, 0xbe, 0xd4, 0x9b, 0xe2, 0x3e, 0x5e, 0x7c, 0x66, 0xbe, 0x98, 0x11, 0xdd, 0x3e, 0xe0, 0x34, 0x9e, 0xbe, 0x4e, 0xdf, 0xb5, 0x3f, 0x69, 0x29, 0x93, 0x3c, 0x53, 0xd5, 0xd6, 0xbd, 0xb8, 0xd8, 0xbe, 0xbe, 0x42, 0x3c, 0xab, 0xbc, 0x1d, 0xe9, 0xa5, 0xbd, 0x43, 0x7a, 0x40, 0xbe, 0x15, 0x16, 0x0d, 0x3f, 0xdd, 0x21, 0x01, 0x3e, 0xaa, 0x1f, 0xcc, 0xbe, 0x66, 0xd8, 0xb0, 0x3e, 0xac, 0xe0, 0x90, 0xbe, 0xb0, 0x1e, 0x9a, 0xbd, 0x83, 0x36, 0x07, 0xbf, 0x76, 0xe8, 0x0c, 0x3f, 0xac, 0xf3, 0x9e, 0x3e, 0xf3, 0x91, 0x34, 0xbd, 0x42, 0x9b, 0xd2, 0xbc, 0xac, 0x0e, 0xf9, 0xbd, 0xf5, 0xff, 0xb6, 0xbe, 0x7b, 0xaa, 0x46, 0x3e, 0xcf, 0x22, 0xa0, 0xbe, 0x04, 0xd7, 0x29, 0x3f, 0x84, 0x20, 0x5b, 0x3f, 0x49, 0xeb, 0xd5, 0x3e, 0xb1, 0xd8, 0x5e, 0xbe, 0xf2, 0x1f, 0x84, 0xbe, 0x34, 0xbf, 0x25, 0xbe, 0xc0, 0x40, 0x1d, 0x3f, 0xcc, 0xbd, 0xcd, 0x3e, 0x48, 0x2c, 0xda, 0xbd, 0x44, 0xcc, 0x1c, 0xbd, 0x4d, 0xad, 0x87, 0xbe, 0x50, 0xa9, 0xec, 0xbe, 0xd9, 0x29, 0x91, 0x3f, 0x6e, 0xfb, 0x11, 0x3f, 0xa4, 0x7d, 0x85, 0xbe, 0xcc, 0xe6, 0x45, 0x3f, 0x1a, 0x20, 0x86, 0xbe, 0xff, 0x02, 0x84, 0xbe, 0x59, 0x46, 0x8c, 0x3d, 0x3b, 0x3b, 0x48, 0xbf, 0xc3, 0xcc, 0xd0, 0xbf, 0x0e, 0x3c, 0x5d, 0x3e, 0x5d, 0x25, 0x3c, 0xbf, 0x7a, 0xa0, 0x10, 0xbf, 0x9e, 0xfd, 0x83, 0xbf, 0x2e, 0x02, 0x06, 0x3d, 0xef, 0x9f, 0x82, 0x3e, 0x35, 0x1c, 0xc8, 0x3e, 0x43, 0x0a, 0xad, 0xbe, 0x51, 0x2d, 0x53, 0x3f, 0x8d, 0xb7, 0xb9, 0xbe, 0x0d, 0x00, 0xba, 0xbe, 0x58, 0xd4, 0x4d, 0x3f, 0x52, 0x3c, 0x9a, 0x3f, 0x4e, 0xeb, 0x99, 0x3e, 0x4c, 0x1f, 0x4b, 0xbe, 0x62, 0x8c, 0xe5, 0xbd, 0x9e, 0xd6, 0x19, 0xbf, 0x01, 0x80, 0xa3, 0x3e, 0xac, 0x4c, 0xd6, 0xbe, 0x3c, 0xd2, 0xff, 0x3d, 0x2c, 0xc3, 0x45, 0x3f, 0x7e, 0xd1, 0x4d, 0xbf, 0x8a, 0x46, 0x97, 0x3e, 0xdc, 0x06, 0x10, 0x3f, 0xe8, 0x0a, 0xde, 0x3e, 0xb9, 0x99, 0x88, 0x3f, 0xf1, 0x77, 0x58, 0x3f, 0x10, 0xac, 0x52, 0xbf, 0x55, 0x37, 0x02, 0xbf, 0x9f, 0xc6, 0x3c, 0x3f, 0x64, 0x44, 0x72, 0x3f, 0xd0, 0x39, 0x20, 0xbf, 0x1d, 0xbb, 0x5e, 0x3f, 0xb8, 0x24, 0xe2, 0x3e, 0x6c, 0xdd, 0xfe, 0x3e, 0xcd, 0x14, 0xa1, 0xbf, 0x2b, 0xc1, 0x08, 0xbf, 0x92, 0x31, 0x31, 0x3f, 0x0a, 0xbd, 0x52, 0x3f, 0xb0, 0x29, 0xc8, 0x3f, 0xfb, 0xf3, 0xe5, 0xbc, 0xcc, 0x9b, 0x6b, 0xbf, 0x17, 0xd0, 0x9f, 0x3e, 0xb8, 0x42, 0xc9, 0x3e, 0xaa, 0x0c, 0x56, 0xbe, 0x71, 0x35, 0x05, 0xbf, 0x6c, 0x22, 0xda, 0x3e, 0x7c, 0x6c, 0xd4, 0x3e, 0x0a, 0x9c, 0x78, 0xbd, 0xe1, 0x44, 0x45, 0x3f, 0xdc, 0x32, 0x8a, 0x3e, 0x25, 0xa2, 0x12, 0xbf, 0x66, 0xe8, 0xd7, 0xbe, 0x3d, 0x90, 0x24, 0x3e, 0x29, 0x12, 0xe8, 0xbe, 0x90, 0x3a, 0x81, 0xbf, 0xf9, 0xd9, 0x55, 0xbc, 0x67, 0x4b, 0x07, 0xbf, 0x04, 0x4c, 0x68, 0xbf, 0xe8, 0xff, 0x1b, 0x3f, 0x97, 0xf9, 0x88, 0x3e, 0xe9, 0x6c, 0x85, 0x3e, 0xf5, 0x79, 0xa7, 0xbe, 0x62, 0x3b, 0xb2, 0x3c, 0x67, 0x2b, 0xba, 0xbd, 0x8c, 0x6b, 0x65, 0x3f, 0x39, 0xdf, 0x68, 0x3e, 0x7a, 0x20, 0x56, 0xbf, 0x9b, 0x46, 0xf3, 0xbd, 0x32, 0x1e, 0xef, 0xbe, 0x47, 0xae, 0x3f, 0xbf, 0xd0, 0xdb, 0xae, 0xbd, 0x42, 0x49, 0xbd, 0xbe, 0xf9, 0x91, 0x5f, 0x3f, 0x09, 0x76, 0x76, 0xbe, 0xf8, 0xaa, 0xec, 0x3e, 0x0f, 0x15, 0x43, 0xbe, 0x53, 0x39, 0x93, 0xbd, 0x18, 0x38, 0x51, 0xbf, 0xba, 0xfe, 0xff, 0xff, 0x04, 0x00, 0x00, 0x00, 0x60, 0x00, 0x00, 0x00, 0x6a, 0x00, 0xa4, 0x3f, 0x6e, 0xc8, 0xb6, 0xbe, 0x6c, 0xc7, 0x34, 0x3f, 0xf6, 0x14, 0xcc, 0x3f, 0x76, 0x49, 0xf3, 0xbf, 0x35, 0x54, 0x48, 0x3f, 0xbd, 0x69, 0x8f, 0x3f, 0x9a, 0xee, 0xfd, 0x3f, 0x90, 0xce, 0x80, 0xbf, 0x6e, 0x1b, 0x1f, 0xbe, 0xcb, 0x4f, 0xbe, 0x3e, 0xcb, 0x66, 0x03, 0xc0, 0x20, 0xca, 0x69, 0x3f, 0xcc, 0x82, 0x53, 0x3f, 0xf1, 0xd2, 0x13, 0xc0, 0x99, 0x58, 0x41, 0xbf, 0xaa, 0x28, 0x4e, 0xbe, 0x95, 0x16, 0x92, 0x3f, 0x76, 0xb8, 0xca, 0xbf, 0xde, 0xd5, 0x86, 0x3e, 0x33, 0x1e, 0x8f, 0x3e, 0x93, 0xf8, 0xb5, 0xbf, 0x4f, 0x04, 0x50, 0x3f, 0xcc, 0x40, 0x07, 0xbf, 0x26, 0xff, 0xff, 0xff, 0x04, 0x00, 0x00, 0x00, 0x0c, 0x00, 0x00, 0x00, 0x8e, 0xe2, 0x23, 0xbc, 0xc0, 0x76, 0x94, 0xbd, 0xc1, 0x12, 0x6c, 0x3e, 0x3e, 0xff, 0xff, 0xff, 0x04, 0x00, 0x00, 0x00, 0x20, 0x00, 0x00, 0x00, 0xe4, 0x3e, 0x8d, 0xbd, 0xcb, 0x31, 0xc0, 0x3e, 0x0d, 0x11, 0x8d, 0x3e, 0xcc, 0x3b, 0x8a, 0x3e, 0x6a, 0x11, 0xa1, 0x3d, 0xe0, 0xf1, 0x1f, 0x3e, 0x5f, 0xe9, 0x00, 0x3f, 0xbe, 0x29, 0xb2, 0xbe, 0x0c, 0xfa, 0xff, 0xff, 0x10, 0xfa, 0xff, 0xff, 0x0f, 0x00, 0x00, 0x00, 0x4d, 0x4c, 0x49, 0x52, 0x20, 0x43, 0x6f, 0x6e, 0x76, 0x65, 0x72, 0x74, 0x65, 0x64, 0x2e, 0x00, 0x01, 0x00, 0x00, 0x00, 0x14, 0x00, 0x00, 0x00, 0x00, 0x00, 0x0e, 0x00, 0x18, 0x00, 0x14, 0x00, 0x10, 0x00, 0x0c, 0x00, 0x08, 0x00, 0x04, 0x00, 0x0e, 0x00, 0x00, 0x00, 0x14, 0x00, 0x00, 0x00, 0x1c, 0x00, 0x00, 0x00, 0x34, 0x01, 0x00, 0x00, 0x38, 0x01, 0x00, 0x00, 0x3c, 0x01, 0x00, 0x00, 0x04, 0x00, 0x00, 0x00, 0x6d, 0x61, 0x69, 0x6e, 0x00, 0x00, 0x00, 0x00, 0x04, 0x00, 0x00, 0x00, 0xdc, 0x00, 0x00, 0x00, 0x94, 0x00, 0x00, 0x00, 0x50, 0x00, 0x00, 0x00, 0x14, 0x00, 0x00, 0x00, 0x00, 0x00, 0x0e, 0x00, 0x1a, 0x00, 0x14, 0x00, 0x10, 0x00, 0x0c, 0x00, 0x0b, 0x00, 0x04, 0x00, 0x0e, 0x00, 0x00, 0x00, 0x1c, 0x00, 0x00, 0x00, 0x00, 0x00, 0x00, 0x09, 0x1c, 0x00, 0x00, 0x00, 0x20, 0x00, 0x00, 0x00, 0x01, 0x00, 0x00, 0x00, 0x00, 0x00, 0x06, 0x00, 0x08, 0x00, 0x04, 0x00, 0x06, 0x00, 0x00, 0x00, 0x00, 0x00, 0x80, 0x3f, 0x01, 0x00, 0x00, 0x00, 0x0a, 0x00, 0x00, 0x00, 0x01, 0x00, 0x00, 0x00, 0x09, 0x00, 0x00, 0x00, 0xce, 0xff, 0xff, 0xff, 0x10, 0x00, 0x00, 0x00, 0x00, 0x00, 0x00, 0x08, 0x0c, 0x00, 0x00, 0x00, 0x10, 0x00, 0x00, 0x00, 0xd4, 0xfa, 0xff, 0xff, 0x01, 0x00, 0x00, 0x00, 0x09, 0x00, 0x00, 0x00, 0x03, 0x00, 0x00, 0x00, 0x08, 0x00, 0x00, 0x00, 0x03, 0x00, 0x00, 0x00, 0x02, 0x00, 0x00, 0x00, 0x00, 0x00, 0x0e, 0x00, 0x14, 0x00, 0x00, 0x00, 0x10, 0x00, 0x0c, 0x00, 0x0b, 0x00, 0x04, 0x00, 0x0e, 0x00, 0x00, 0x00, 0x10, 0x00, 0x00, 0x00, 0x00, 0x00, 0x00, 0x08, 0x10, 0x00, 0x00, 0x00, 0x14, 0x00, 0x00, 0x00, 0xba, 0xff, 0xff, 0xff, 0x00, 0x00, 0x00, 0x01, 0x01, 0x00, 0x00, 0x00, 0x08, 0x00, 0x00, 0x00, 0x03, 0x00, 0x00, 0x00, 0x07, 0x00, 0x00, 0x00, 0x04, 0x00, 0x00, 0x00, 0x01, 0x00, 0x00, 0x00, 0x00, 0x00, 0x0e, 0x00, 0x16, 0x00, 0x00, 0x00, 0x10, 0x00, 0x0c, 0x00, 0x0b, 0x00, 0x04, 0x00, 0x0e, 0x00, 0x00, 0x00, 0x18, 0x00, 0x00, 0x00, 0x00, 0x00, 0x00, 0x08, 0x18, 0x00, 0x00, 0x00, 0x1c, 0x00, 0x00, 0x00, 0x00, 0x00, 0x06, 0x00, 0x08, 0x00, 0x07, 0x00, 0x06, 0x00, 0x00, 0x00, 0x00, 0x00, 0x00, 0x01, 0x01, 0x00, 0x00, 0x00, 0x07, 0x00, 0x00, 0x00, 0x03, 0x00, 0x00, 0x00, 0x00, 0x00, 0x00, 0x00, 0x05, 0x00, 0x00, 0x00, 0x06, 0x00, 0x00, 0x00, 0x01, 0x00, 0x00, 0x00, 0x0a, 0x00, 0x00, 0x00, 0x01, 0x00, 0x00, 0x00, 0x00, 0x00, 0x00, 0x00, 0x0b, 0x00, 0x00, 0x00, 0x44, 0x04, 0x00, 0x00, 0xc4, 0x03, 0x00, 0x00, 0x60, 0x03, 0x00, 0x00, 0x10, 0x03, 0x00, 0x00, 0xc0, 0x02, 0x00, 0x00, 0x74, 0x02, 0x00, 0x00, 0x10, 0x02, 0x00, 0x00, 0x7c, 0x01, 0x00, 0x00, 0xe0, 0x00, 0x00, 0x00, 0x60, 0x00, 0x00, 0x00, 0x04, 0x00, 0x00, 0x00, 0xfe, 0xfb, 0xff, 0xff, 0x00, 0x00, 0x00, 0x01, 0x14, 0x00, 0x00, 0x00, 0x1c, 0x00, 0x00, 0x00, 0x1c, 0x00, 0x00, 0x00, 0x0b, 0x00, 0x00, 0x00, 0x34, 0x00, 0x00, 0x00, 0x02, 0x00, 0x00, 0x00, 0xff, 0xff, 0xff, 0xff, 0x03, 0x00, 0x00, 0x00, 0xe8, 0xfb, 0xff, 0xff, 0x1b, 0x00, 0x00, 0x00, 0x53, 0x74, 0x61, 0x74, 0x65, 0x66, 0x75, 0x6c, 0x50, 0x61, 0x72, 0x74, 0x69, 0x74, 0x69, 0x6f, 0x6e, 0x65, 0x64, 0x43, 0x61, 0x6c, 0x6c, 0x5f, 0x31, 0x3a, 0x30, 0x00, 0x02, 0x00, 0x00, 0x00, 0x01, 0x00, 0x00, 0x00, 0x03, 0x00, 0x00, 0x00, 0x56, 0xfc, 0xff, 0xff, 0x00, 0x00, 0x00, 0x01, 0x14, 0x00, 0x00, 0x00, 0x1c, 0x00, 0x00, 0x00, 0x1c, 0x00, 0x00, 0x00, 0x0a, 0x00, 0x00, 0x00, 0x58, 0x00, 0x00, 0x00, 0x02, 0x00, 0x00, 0x00, 0xff, 0xff, 0xff, 0xff, 0x03, 0x00, 0x00, 0x00, 0x40, 0xfc, 0xff, 0xff, 0x3c, 0x00, 0x00, 0x00, 0x73, 0x65, 0x71, 0x75, 0x65, 0x6e, 0x74, 0x69, 0x61, 0x6c, 0x5f, 0x31, 0x2f, 0x64, 0x65, 0x6e, 0x73, 0x65, 0x5f, 0x32, 0x5f, 0x31, 0x2f, 0x4d, 0x61, 0x74, 0x4d, 0x75, 0x6c, 0x3b, 0x73, 0x65, 0x71, 0x75, 0x65, 0x6e, 0x74, 0x69, 0x61, 0x6c, 0x5f, 0x31, 0x2f, 0x64, 0x65, 0x6e, 0x73, 0x65, 0x5f, 0x32, 0x5f, 0x31, 0x2f, 0x42, 0x69, 0x61, 0x73, 0x41, 0x64, 0x64, 0x00, 0x00, 0x00, 0x00, 0x02, 0x00, 0x00, 0x00, 0x01, 0x00, 0x00, 0x00, 0x03, 0x00, 0x00, 0x00, 0xd2, 0xfc, 0xff, 0xff, 0x00, 0x00, 0x00, 0x01, 0x14, 0x00, 0x00, 0x00, 0x1c, 0x00, 0x00, 0x00, 0x1c, 0x00, 0x00, 0x00, 0x09, 0x00, 0x00, 0x00, 0x74, 0x00, 0x00, 0x00, 0x02, 0x00, 0x00, 0x00, 0xff, 0xff, 0xff, 0xff, 0x08, 0x00, 0x00, 0x00, 0xbc, 0xfc, 0xff, 0xff, 0x58, 0x00, 0x00, 0x00, 0x73, 0x65, 0x71, 0x75, 0x65, 0x6e, 0x74, 0x69, 0x61, 0x6c, 0x5f, 0x31, 0x2f, 0x64, 0x65, 0x6e, 0x73, 0x65, 0x5f, 0x31, 0x5f, 0x32, 0x2f, 0x4d, 0x61, 0x74, 0x4d, 0x75, 0x6c, 0x3b, 0x73, 0x65, 0x71, 0x75, 0x65, 0x6e, 0x74, 0x69, 0x61, 0x6c, 0x5f, 0x31, 0x2f, 0x64, 0x65, 0x6e, 0x73, 0x65, 0x5f, 0x31, 0x5f, 0x32, 0x2f, 0x52, 0x65, 0x6c, 0x75, 0x3b, 0x73, 0x65, 0x71, 0x75, 0x65, 0x6e, 0x74, 0x69, 0x61, 0x6c, 0x5f, 0x31, 0x2f, 0x64, 0x65, 0x6e, 0x73, 0x65, 0x5f, 0x31, 0x5f, 0x32, 0x2f, 0x42, 0x69, 0x61, 0x73, 0x41, 0x64, 0x64, 0x00, 0x00, 0x00, 0x00, 0x02, 0x00, 0x00, 0x00, 0x01, 0x00, 0x00, 0x00, 0x08, 0x00, 0x00, 0x00, 0x6a, 0xfd, 0xff, 0xff, 0x00, 0x00, 0x00, 0x01, 0x14, 0x00, 0x00, 0x00, 0x1c, 0x00, 0x00, 0x00, 0x1c, 0x00, 0x00, 0x00, 0x08, 0x00, 0x00, 0x00, 0x6c, 0x00, 0x00, 0x00, 0x02, 0x00, 0x00, 0x00, 0xff, 0xff, 0xff, 0xff, 0x10, 0x00, 0x00, 0x00, 0x54, 0xfd, 0xff, 0xff, 0x52, 0x00, 0x00, 0x00, 0x73, 0x65, 0x71, 0x75, 0x65, 0x6e, 0x74, 0x69, 0x61, 0x6c, 0x5f, 0x31, 0x2f, 0x64, 0x65, 0x6e, 0x73, 0x65, 0x5f, 0x31, 0x2f, 0x4d, 0x61, 0x74, 0x4d, 0x75, 0x6c, 0x3b, 0x73, 0x65, 0x71, 0x75, 0x65, 0x6e, 0x74, 0x69, 0x61, 0x6c, 0x5f, 0x31, 0x2f, 0x64, 0x65, 0x6e, 0x73, 0x65, 0x5f, 0x31, 0x2f, 0x52, 0x65, 0x6c, 0x75, 0x3b, 0x73, 0x65, 0x71, 0x75, 0x65, 0x6e, 0x74, 0x69, 0x61, 0x6c, 0x5f, 0x31, 0x2f, 0x64, 0x65, 0x6e, 0x73, 0x65, 0x5f, 0x31, 0x2f, 0x42, 0x69, 0x61, 0x73, 0x41, 0x64, 0x64, 0x00, 0x00, 0x02, 0x00, 0x00, 0x00, 0x01, 0x00, 0x00, 0x00, 0x10, 0x00, 0x00, 0x00, 0x76, 0xfe, 0xff, 0xff, 0x00, 0x00, 0x00, 0x01, 0x10, 0x00, 0x00, 0x00, 0x10, 0x00, 0x00, 0x00, 0x07, 0x00, 0x00, 0x00, 0x44, 0x00, 0x00, 0x00, 0xd4, 0xfd, 0xff, 0xff, 0x36, 0x00, 0x00, 0x00, 0x73, 0x65, 0x71, 0x75, 0x65, 0x6e, 0x74, 0x69, 0x61, 0x6c, 0x5f, 0x31, 0x2f, 0x64, 0x65, 0x6e, 0x73, 0x65, 0x5f, 0x31, 0x2f, 0x52, 0x65, 0x6c, 0x75, 0x3b, 0x73, 0x65, 0x71, 0x75, 0x65, 0x6e, 0x74, 0x69, 0x61, 0x6c, 0x5f, 0x31, 0x2f, 0x64, 0x65, 0x6e, 0x73, 0x65, 0x5f, 0x31, 0x2f, 0x42, 0x69, 0x61, 0x73, 0x41, 0x64, 0x64, 0x00, 0x00, 0x01, 0x00, 0x00, 0x00, 0x10, 0x00, 0x00, 0x00, 0xd6, 0xfe, 0xff, 0xff, 0x00, 0x00, 0x00, 0x01, 0x10, 0x00, 0x00, 0x00, 0x10, 0x00, 0x00, 0x00, 0x06, 0x00, 0x00, 0x00, 0x28, 0x00, 0x00, 0x00, 0x34, 0xfe, 0xff, 0xff, 0x1b, 0x00, 0x00, 0x00, 0x73, 0x65, 0x71, 0x75, 0x65, 0x6e, 0x74, 0x69, 0x61, 0x6c, 0x5f, 0x31, 0x2f, 0x64, 0x65, 0x6e, 0x73, 0x65, 0x5f, 0x31, 0x2f, 0x4d, 0x61, 0x74, 0x4d, 0x75, 0x6c, 0x00, 0x02, 0x00, 0x00, 0x00, 0x10, 0x00, 0x00, 0x00, 0x0a, 0x00, 0x00, 0x00, 0x1e, 0xff, 0xff, 0xff, 0x00, 0x00, 0x00, 0x01, 0x10, 0x00, 0x00, 0x00, 0x10, 0x00, 0x00, 0x00, 0x05, 0x00, 0x00, 0x00, 0x2c, 0x00, 0x00, 0x00, 0x7c, 0xfe, 0xff, 0xff, 0x1d, 0x00, 0x00, 0x00, 0x73, 0x65, 0x71, 0x75, 0x65, 0x6e, 0x74, 0x69, 0x61, 0x6c, 0x5f, 0x31, 0x2f, 0x64, 0x65, 0x6e, 0x73, 0x65, 0x5f, 0x31, 0x5f, 0x32, 0x2f, 0x4d, 0x61, 0x74, 0x4d, 0x75, 0x6c, 0x00, 0x00, 0x00, 0x02, 0x00, 0x00, 0x00, 0x08, 0x00, 0x00, 0x00, 0x10, 0x00, 0x00, 0x00, 0x6a, 0xff, 0xff, 0xff, 0x00, 0x00, 0x00, 0x01, 0x10, 0x00, 0x00, 0x00, 0x10, 0x00, 0x00, 0x00, 0x04, 0x00, 0x00, 0x00, 0x2c, 0x00, 0x00, 0x00, 0xc8, 0xfe, 0xff, 0xff, 0x1d, 0x00, 0x00, 0x00, 0x73, 0x65, 0x71, 0x75, 0x65, 0x6e, 0x74, 0x69, 0x61, 0x6c, 0x5f, 0x31, 0x2f, 0x64, 0x65, 0x6e, 0x73, 0x65, 0x5f, 0x32, 0x5f, 0x31, 0x2f, 0x4d, 0x61, 0x74, 0x4d, 0x75, 0x6c, 0x00, 0x00, 0x00, 0x02, 0x00, 0x00, 0x00, 0x03, 0x00, 0x00, 0x00, 0x08, 0x00, 0x00, 0x00, 0xb6, 0xff, 0xff, 0xff, 0x00, 0x00, 0x00, 0x01, 0x10, 0x00, 0x00, 0x00, 0x10, 0x00, 0x00, 0x00, 0x03, 0x00, 0x00, 0x00, 0x2c, 0x00, 0x00, 0x00, 0x14, 0xff, 0xff, 0xff, 0x1e, 0x00, 0x00, 0x00, 0x73, 0x65, 0x71, 0x75, 0x65, 0x6e, 0x74, 0x69, 0x61, 0x6c, 0x5f, 0x31, 0x2f, 0x64, 0x65, 0x6e, 0x73, 0x65, 0x5f, 0x32, 0x5f, 0x31, 0x2f, 0x42, 0x69, 0x61, 0x73, 0x41, 0x64, 0x64, 0x00, 0x00, 0x01, 0x00, 0x00, 0x00, 0x03, 0x00, 0x00, 0x00, 0x00, 0x00, 0x16, 0x00, 0x18, 0x00, 0x14, 0x00, 0x00, 0x00, 0x10, 0x00, 0x0c, 0x00, 0x08, 0x00, 0x00, 0x00, 0x00, 0x00, 0x00, 0x00, 0x07, 0x00, 0x16, 0x00, 0x00, 0x00, 0x00, 0x00, 0x00, 0x01, 0x10, 0x00, 0x00, 0x00, 0x10, 0x00, 0x00, 0x00, 0x02, 0x00, 0x00, 0x00, 0x48, 0x00, 0x00, 0x00, 0x74, 0xff, 0xff, 0xff, 0x3a, 0x00, 0x00, 0x00, 0x73, 0x65, 0x71, 0x75, 0x65, 0x6e, 0x74, 0x69, 0x61, 0x6c, 0x5f, 0x31, 0x2f, 0x64, 0x65, 0x6e, 0x73, 0x65, 0x5f, 0x31, 0x5f, 0x32, 0x2f, 0x52, 0x65, 0x6c, 0x75, 0x3b, 0x73, 0x65, 0x71, 0x75, 0x65, 0x6e, 0x74, 0x69, 0x61, 0x6c, 0x5f, 0x31, 0x2f, 0x64, 0x65, 0x6e, 0x73, 0x65, 0x5f, 0x31, 0x5f, 0x32, 0x2f, 0x42, 0x69, 0x61, 0x73, 0x41, 0x64, 0x64, 0x00, 0x00, 0x01, 0x00, 0x00, 0x00, 0x08, 0x00, 0x00, 0x00, 0x00, 0x00, 0x16, 0x00, 0x1c, 0x00, 0x18, 0x00, 0x00, 0x00, 0x14, 0x00, 0x10, 0x00, 0x0c, 0x00, 0x00, 0x00, 0x00, 0x00, 0x08, 0x00, 0x07, 0x00, 0x16, 0x00, 0x00, 0x00, 0x00, 0x00, 0x00, 0x01, 0x14, 0x00, 0x00, 0x00, 0x20, 0x00, 0x00, 0x00, 0x20, 0x00, 0x00, 0x00, 0x01, 0x00, 0x00, 0x00, 0x3c, 0x00, 0x00, 0x00, 0x02, 0x00, 0x00, 0x00, 0xff, 0xff, 0xff, 0xff, 0x0a, 0x00, 0x00, 0x00, 0x04, 0x00, 0x04, 0x00, 0x04, 0x00, 0x00, 0x00, 0x1e, 0x00, 0x00, 0x00, 0x73, 0x65, 0x72, 0x76, 0x69, 0x6e, 0x67, 0x5f, 0x64, 0x65, 0x66, 0x61, 0x75, 0x6c, 0x74, 0x5f, 0x6b, 0x65, 0x72, 0x61, 0x73, 0x5f, 0x74, 0x65, 0x6e, 0x73, 0x6f, 0x72, 0x3a, 0x30, 0x00, 0x00, 0x02, 0x00, 0x00, 0x00, 0x01, 0x00, 0x00, 0x00, 0x0a, 0x00, 0x00, 0x00, 0x02, 0x00, 0x00, 0x00, 0x20, 0x00, 0x00, 0x00, 0x04, 0x00, 0x00, 0x00, 0xf4, 0xff, 0xff, 0xff, 0x19, 0x00, 0x00, 0x00, 0x00, 0x00, 0x00, 0x19, 0x0c, 0x00, 0x0c, 0x00, 0x0b, 0x00, 0x00, 0x00, 0x00, 0x00, 0x04, 0x00, 0x0c, 0x00, 0x00, 0x00, 0x09, 0x00, 0x00, 0x00, 0x00, 0x00, 0x00, 0x09
};

// -------------------------------------------------------------
// STANDARD SCALER PARAMETERS (Must apply exactly before inference)
// For each feature: scaled_x = (x - mean) / scale
// -------------------------------------------------------------
const float feature_means[10] = {-0.585661, 1.656645, 0.056115, -0.063763, -0.047243, 0.045003, 0.836114, 4.097786, 0.773216, 0.001733};
const float feature_scales[10] = {1.401546, 2.033277, 1.238328, 0.472711, 0.731424, 0.495551, 0.149005, 15.652015, 3.004586, 0.009525};

// Feature Order: posX, posY, posZ, velX, velY, velZ, conf, HR, BR, BR_dev
